#ifndef TFLITE_MODEL_H_
#define TFLITE_MODEL_H_

#include <stdint.h>

const unsigned char model_tflite[] = {
    32, 0, 0, 0, 84, 70, 76, 51, 0, 0, 0, 0,
    20, 0, 32, 0, 28, 0, 24, 0, 20, 0, 16, 0,
    12, 0, 0, 0, 8, 0, 4, 0, 20, 0, 0, 0,
    28, 0, 0, 0, 140, 0, 0, 0, 228, 0, 0, 0,
    124, 3, 0, 0, 140, 3, 0, 0, 216, 10, 0, 0,
    3, 0, 0, 0, 1, 0, 0, 0, 16, 0, 0, 0,
    0, 0, 10, 0, 16, 0, 12, 0, 8, 0, 4, 0,
    10, 0, 0, 0, 12, 0, 0, 0, 28, 0, 0, 0,
    56, 0, 0, 0, 15, 0, 0, 0, 115, 101, 114, 118,
    105, 110, 103, 95, 100, 101, 102, 97, 117, 108, 116, 0,
    1, 0, 0, 0, 4, 0, 0, 0, 156, 255, 255, 255,
    10, 0, 0, 0, 4, 0, 0, 0, 7, 0, 0, 0,
    100, 101, 110, 115, 101, 95, 50, 0, 1, 0, 0, 0,
    4, 0, 0, 0, 102, 252, 255, 255, 4, 0, 0, 0,
    7, 0, 0, 0, 105, 110, 112, 117, 116, 95, 49, 0,
    2, 0, 0, 0, 52, 0, 0, 0, 4, 0, 0, 0,
    220, 255, 255, 255, 13, 0, 0, 0, 4, 0, 0, 0,
    19, 0, 0, 0, 67, 79, 78, 86, 69, 82, 83, 73,
    79, 78, 95, 77, 69, 84, 65, 68, 65, 84, 65, 0,
    8, 0, 12, 0, 8, 0, 4, 0, 8, 0, 0, 0,
    12, 0, 0, 0, 4, 0, 0, 0, 19, 0, 0, 0,
    109, 105, 110, 95, 114, 117, 110, 116, 105, 109, 101, 95,
    118, 101, 114, 115, 105, 111, 110, 0, 14, 0, 0, 0,
    148, 2, 0, 0, 140, 2, 0, 0, 112, 2, 0, 0,
    60, 2, 0, 0, 252, 1, 0, 0, 44, 1, 0, 0,
    220, 0, 0, 0, 172, 0, 0, 0, 164, 0, 0, 0,
    156, 0, 0, 0, 148, 0, 0, 0, 140, 0, 0, 0,
    108, 0, 0, 0, 4, 0, 0, 0, 18, 253, 255, 255,
    4, 0, 0, 0, 88, 0, 0, 0, 12, 0, 0, 0,
    8, 0, 14, 0, 8, 0, 4, 0, 8, 0, 0, 0,
    16, 0, 0, 0, 40, 0, 0, 0, 0, 0, 6, 0,
    8, 0, 4, 0, 6, 0, 0, 0, 4, 0, 0, 0,
    1, 0, 0, 0, 235, 3, 0, 0, 0, 0, 10, 0,
    16, 0, 12, 0, 8, 0, 4, 0, 10, 0, 0, 0,
    2, 0, 0, 0, 2, 0, 0, 0, 4, 0, 0, 0,
    6, 0, 0, 0, 50, 46, 49, 49, 46, 48, 0, 0,
    118, 253, 255, 255, 4, 0, 0, 0, 16, 0, 0, 0,
    49, 46, 49, 52, 46, 48, 0, 0, 0, 0, 0, 0,
    0, 0, 0, 0, 96, 253, 255, 255, 100, 253, 255, 255,
    104, 253, 255, 255, 108, 253, 255, 255, 162, 253, 255, 255,
    4, 0, 0, 0, 32, 0, 0, 0, 245, 149, 230, 65,
    54, 33, 88, 174, 7, 243, 127, 26, 240, 253, 216, 69,
    217, 236, 235, 238, 103, 2, 222, 244, 0, 229, 59, 41,
    243, 242, 240, 81, 206, 253, 255, 255, 4, 0, 0, 0,
    64, 0, 0, 0, 67, 55, 0, 0, 194, 236, 255, 255,
    4, 231, 255, 255, 161, 8, 0, 0, 232, 250, 255, 255,
    223, 223, 255, 255, 0, 0, 0, 0, 61, 234, 255, 255,
    0, 0, 0, 0, 0, 0, 0, 0, 255, 242, 255, 255,
    0, 0, 0, 0, 161, 255, 255, 255, 184, 65, 0, 0,
    0, 0, 0, 0, 158, 37, 0, 0, 26, 254, 255, 255,
    4, 0, 0, 0, 192, 0, 0, 0, 237, 0, 240, 250,
    3, 1, 249, 255, 13, 242, 15, 236, 0, 252, 9, 247,
    9, 241, 248, 6, 240, 6, 244, 237, 7, 20, 254, 236,
    6, 239, 244, 1, 159, 138, 10, 16, 8, 62, 235, 158,
    16, 239, 60, 233, 244, 6, 234, 235, 163, 211, 249, 129,
    17, 250, 249, 209, 240, 12, 250, 2, 247, 51, 9, 29,
    238, 39, 206, 191, 238, 132, 2, 32, 250, 253, 153, 12,
    5, 21, 234, 23, 248, 21, 21, 248, 3, 233, 250, 233,
    19, 7, 243, 19, 249, 255, 253, 235, 118, 73, 27, 26,
    236, 39, 239, 55, 243, 17, 2, 254, 10, 0, 241, 42,
    60, 79, 7, 88, 241, 49, 10, 77, 236, 1, 42, 1,
    4, 4, 21, 218, 167, 180, 8, 222, 246, 1, 255, 190,
    19, 239, 28, 251, 13, 26, 1, 251, 85, 83, 251, 87,
    237, 7, 237, 91, 22, 2, 9, 0, 244, 9, 6, 7,
    235, 13, 10, 8, 240, 248, 245, 16, 242, 17, 235, 241,
    14, 244, 251, 236, 14, 235, 255, 14, 239, 243, 238, 23,
    249, 247, 233, 2, 10, 238, 16, 246, 230, 254, 255, 255,
    4, 0, 0, 0, 48, 0, 0, 0, 0, 0, 0, 0,
    155, 255, 255, 255, 177, 255, 255, 255, 69, 24, 0, 0,
    125, 28, 0, 0, 204, 255, 255, 255, 142, 250, 255, 255,
    131, 236, 255, 255, 217, 14, 0, 0, 121, 241, 255, 255,
    183, 255, 255, 255, 73, 255, 255, 255, 34, 255, 255, 255,
    4, 0, 0, 0, 36, 0, 0, 0, 254, 24, 17, 58,
    129, 10, 216, 143, 50, 186, 249, 18, 245, 252, 80, 219,
    87, 5, 219, 45, 24, 13, 8, 19, 0, 243, 177, 226,
    178, 24, 55, 60, 206, 84, 20, 14, 82, 255, 255, 255,
    4, 0, 0, 0, 12, 0, 0, 0, 154, 5, 0, 0,
    174, 251, 255, 255, 204, 254, 255, 255, 56, 255, 255, 255,
    60, 255, 255, 255, 15, 0, 0, 0, 77, 76, 73, 82,
    32, 67, 111, 110, 118, 101, 114, 116, 101, 100, 46, 0,
    1, 0, 0, 0, 20, 0, 0, 0, 0, 0, 14, 0,
    24, 0, 20, 0, 16, 0, 12, 0, 8, 0, 4, 0,
    14, 0, 0, 0, 20, 0, 0, 0, 28, 0, 0, 0,
    56, 1, 0, 0, 60, 1, 0, 0, 64, 1, 0, 0,
    4, 0, 0, 0, 109, 97, 105, 110, 0, 0, 0, 0,
    4, 0, 0, 0, 224, 0, 0, 0, 152, 0, 0, 0,
    80, 0, 0, 0, 20, 0, 0, 0, 0, 0, 14, 0,
    26, 0, 20, 0, 16, 0, 12, 0, 11, 0, 4, 0,
    14, 0, 0, 0, 28, 0, 0, 0, 0, 0, 0, 9,
    28, 0, 0, 0, 32, 0, 0, 0, 1, 0, 0, 0,
    0, 0, 6, 0, 8, 0, 4, 0, 6, 0, 0, 0,
    0, 0, 128, 63, 1, 0, 0, 0, 10, 0, 0, 0,
    1, 0, 0, 0, 9, 0, 0, 0, 202, 255, 255, 255,
    20, 0, 0, 0, 0, 0, 0, 8, 16, 0, 0, 0,
    20, 0, 0, 0, 4, 0, 4, 0, 4, 0, 0, 0,
    1, 0, 0, 0, 9, 0, 0, 0, 3, 0, 0, 0,
    8, 0, 0, 0, 2, 0, 0, 0, 1, 0, 0, 0,
    0, 0, 14, 0, 20, 0, 0, 0, 16, 0, 12, 0,
    11, 0, 4, 0, 14, 0, 0, 0, 16, 0, 0, 0,
    0, 0, 0, 8, 16, 0, 0, 0, 20, 0, 0, 0,
    186, 255, 255, 255, 0, 0, 0, 1, 1, 0, 0, 0,
    8, 0, 0, 0, 3, 0, 0, 0, 7, 0, 0, 0,
    4, 0, 0, 0, 3, 0, 0, 0, 0, 0, 14, 0,
    22, 0, 0, 0, 16, 0, 12, 0, 11, 0, 4, 0,
    14, 0, 0, 0, 24, 0, 0, 0, 0, 0, 0, 8,
    24, 0, 0, 0, 28, 0, 0, 0, 0, 0, 6, 0,
    8, 0, 7, 0, 6, 0, 0, 0, 0, 0, 0, 1,
    1, 0, 0, 0, 7, 0, 0, 0, 3, 0, 0, 0,
    0, 0, 0, 0, 6, 0, 0, 0, 5, 0, 0, 0,
    1, 0, 0, 0, 10, 0, 0, 0, 1, 0, 0, 0,
    0, 0, 0, 0, 11, 0, 0, 0, 88, 5, 0, 0,
    200, 4, 0, 0, 68, 4, 0, 0, 200, 3, 0, 0,
    92, 3, 0, 0, 232, 2, 0, 0, 124, 2, 0, 0,
    208, 1, 0, 0, 28, 1, 0, 0, 128, 0, 0, 0,
    4, 0, 0, 0, 234, 250, 255, 255, 0, 0, 0, 1,
    24, 0, 0, 0, 32, 0, 0, 0, 60, 0, 0, 0,
    11, 0, 0, 0, 0, 0, 0, 9, 80, 0, 0, 0,
    2, 0, 0, 0, 255, 255, 255, 255, 3, 0, 0, 0,
    212, 250, 255, 255, 8, 0, 0, 0, 16, 0, 0, 0,
    1, 0, 0, 0, 128, 255, 255, 255, 255, 255, 255, 255,
    1, 0, 0, 0, 0, 0, 128, 59, 25, 0, 0, 0,
    83, 116, 97, 116, 101, 102, 117, 108, 80, 97, 114, 116,
    105, 116, 105, 111, 110, 101, 100, 67, 97, 108, 108, 58,
    48, 0, 0, 0, 2, 0, 0, 0, 1, 0, 0, 0,
    3, 0, 0, 0, 98, 251, 255, 255, 0, 0, 0, 1,
    24, 0, 0, 0, 32, 0, 0, 0, 64, 0, 0, 0,
    10, 0, 0, 0, 0, 0, 0, 9, 112, 0, 0, 0,
    2, 0, 0, 0, 255, 255, 255, 255, 3, 0, 0, 0,
    76, 251, 255, 255, 8, 0, 0, 0, 20, 0, 0, 0,
    1, 0, 0, 0, 16, 0, 0, 0, 0, 0, 0, 0,
    0, 0, 0, 0, 1, 0, 0, 0, 69, 130, 183, 61,
    52, 0, 0, 0, 115, 101, 113, 117, 101, 110, 116, 105,
    97, 108, 47, 100, 101, 110, 115, 101, 95, 50, 47, 77,
    97, 116, 77, 117, 108, 59, 115, 101, 113, 117, 101, 110,
    116, 105, 97, 108, 47, 100, 101, 110, 115, 101, 95, 50,
    47, 66, 105, 97, 115, 65, 100, 100, 0, 0, 0, 0,
    2, 0, 0, 0, 1, 0, 0, 0, 3, 0, 0, 0,
    250, 251, 255, 255, 0, 0, 0, 1, 24, 0, 0, 0,
    32, 0, 0, 0, 64, 0, 0, 0, 9, 0, 0, 0,
    0, 0, 0, 9, 136, 0, 0, 0, 2, 0, 0, 0,
    255, 255, 255, 255, 12, 0, 0, 0, 228, 251, 255, 255,
    8, 0, 0, 0, 20, 0, 0, 0, 1, 0, 0, 0,
    128, 255, 255, 255, 255, 255, 255, 255, 0, 0, 0, 0,
    1, 0, 0, 0, 23, 170, 104, 60, 76, 0, 0, 0,
    115, 101, 113, 117, 101, 110, 116, 105, 97, 108, 47, 100,
    101, 110, 115, 101, 95, 49, 47, 77, 97, 116, 77, 117,
    108, 59, 115, 101, 113, 117, 101, 110, 116, 105, 97, 108,
    47, 100, 101, 110, 115, 101, 95, 49, 47, 82, 101, 108,
    117, 59, 115, 101, 113, 117, 101, 110, 116, 105, 97, 108,
    47, 100, 101, 110, 115, 101, 95, 49, 47, 66, 105, 97,
    115, 65, 100, 100, 0, 0, 0, 0, 2, 0, 0, 0,
    1, 0, 0, 0, 12, 0, 0, 0, 170, 252, 255, 255,
    0, 0, 0, 1, 24, 0, 0, 0, 32, 0, 0, 0,
    64, 0, 0, 0, 8, 0, 0, 0, 0, 0, 0, 9,
    128, 0, 0, 0, 2, 0, 0, 0, 255, 255, 255, 255,
    16, 0, 0, 0, 148, 252, 255, 255, 8, 0, 0, 0,
    20, 0, 0, 0, 1, 0, 0, 0, 128, 255, 255, 255,
    255, 255, 255, 255, 0, 0, 0, 0, 1, 0, 0, 0,
    9, 241, 6, 60, 70, 0, 0, 0, 115, 101, 113, 117,
    101, 110, 116, 105, 97, 108, 47, 100, 101, 110, 115, 101,
    47, 77, 97, 116, 77, 117, 108, 59, 115, 101, 113, 117,
    101, 110, 116, 105, 97, 108, 47, 100, 101, 110, 115, 101,
    47, 82, 101, 108, 117, 59, 115, 101, 113, 117, 101, 110,
    116, 105, 97, 108, 47, 100, 101, 110, 115, 101, 47, 66,
    105, 97, 115, 65, 100, 100, 0, 0, 2, 0, 0, 0,
    1, 0, 0, 0, 16, 0, 0, 0, 222, 253, 255, 255,
    0, 0, 0, 1, 20, 0, 0, 0, 52, 0, 0, 0,
    7, 0, 0, 0, 0, 0, 0, 9, 68, 0, 0, 0,
    44, 253, 255, 255, 8, 0, 0, 0, 20, 0, 0, 0,
    1, 0, 0, 0, 0, 0, 0, 0, 0, 0, 0, 0,
    0, 0, 0, 0, 1, 0, 0, 0, 81, 161, 105, 60,
    23, 0, 0, 0, 115, 101, 113, 117, 101, 110, 116, 105,
    97, 108, 47, 100, 101, 110, 115, 101, 47, 77, 97, 116,
    77, 117, 108, 0, 2, 0, 0, 0, 16, 0, 0, 0,
    2, 0, 0, 0, 70, 254, 255, 255, 0, 0, 0, 1,
    20, 0, 0, 0, 48, 0, 0, 0, 6, 0, 0, 0,
    0, 0, 0, 2, 80, 0, 0, 0, 148, 253, 255, 255,
    8, 0, 0, 0, 16, 0, 0, 0, 1, 0, 0, 0,
    0, 0, 0, 0, 0, 0, 0, 0, 1, 0, 0, 0,
    27, 219, 101, 56, 39, 0, 0, 0, 115, 101, 113, 117,
    101, 110, 116, 105, 97, 108, 47, 100, 101, 110, 115, 101,
    47, 66, 105, 97, 115, 65, 100, 100, 47, 82, 101, 97,
    100, 86, 97, 114, 105, 97, 98, 108, 101, 79, 112, 0,
    1, 0, 0, 0, 16, 0, 0, 0, 182, 254, 255, 255,
    0, 0, 0, 1, 20, 0, 0, 0, 48, 0, 0, 0,
    5, 0, 0, 0, 0, 0, 0, 9, 68, 0, 0, 0,
    4, 254, 255, 255, 8, 0, 0, 0, 16, 0, 0, 0,
    1, 0, 0, 0, 0, 0, 0, 0, 0, 0, 0, 0,
    1, 0, 0, 0, 234, 81, 164, 60, 25, 0, 0, 0,
    115, 101, 113, 117, 101, 110, 116, 105, 97, 108, 47, 100,
    101, 110, 115, 101, 95, 49, 47, 77, 97, 116, 77, 117,
    108, 0, 0, 0, 2, 0, 0, 0, 12, 0, 0, 0,
    16, 0, 0, 0, 30, 255, 255, 255, 0, 0, 0, 1,
    20, 0, 0, 0, 52, 0, 0, 0, 4, 0, 0, 0,
    0, 0, 0, 2, 88, 0, 0, 0, 108, 254, 255, 255,
    8, 0, 0, 0, 20, 0, 0, 0, 1, 0, 0, 0,
    0, 0, 0, 0, 0, 0, 0, 0, 0, 0, 0, 0,
    1, 0, 0, 0, 47, 59, 45, 57, 41, 0, 0, 0,
    115, 101, 113, 117, 101, 110, 116, 105, 97, 108, 47, 100,
    101, 110, 115, 101, 95, 49, 47, 66, 105, 97, 115, 65,
    100, 100, 47, 82, 101, 97, 100, 86, 97, 114, 105, 97,
    98, 108, 101, 79, 112, 0, 0, 0, 1, 0, 0, 0,
    12, 0, 0, 0, 150, 255, 255, 255, 0, 0, 0, 1,
    20, 0, 0, 0, 48, 0, 0, 0, 3, 0, 0, 0,
    0, 0, 0, 9, 68, 0, 0, 0, 228, 254, 255, 255,
    8, 0, 0, 0, 16, 0, 0, 0, 1, 0, 0, 0,
    0, 0, 0, 0, 0, 0, 0, 0, 1, 0, 0, 0,
    2, 64, 191, 60, 25, 0, 0, 0, 115, 101, 113, 117,
    101, 110, 116, 105, 97, 108, 47, 100, 101, 110, 115, 101,
    95, 50, 47, 77, 97, 116, 77, 117, 108, 0, 0, 0,
    2, 0, 0, 0, 3, 0, 0, 0, 12, 0, 0, 0,
    0, 0, 22, 0, 28, 0, 24, 0, 23, 0, 16, 0,
    12, 0, 8, 0, 0, 0, 0, 0, 0, 0, 7, 0,
    22, 0, 0, 0, 0, 0, 0, 1, 20, 0, 0, 0,
    48, 0, 0, 0, 2, 0, 0, 0, 0, 0, 0, 2,
    84, 0, 0, 0, 100, 255, 255, 255, 8, 0, 0, 0,
    16, 0, 0, 0, 1, 0, 0, 0, 0, 0, 0, 0,
    0, 0, 0, 0, 1, 0, 0, 0, 20, 209, 173, 57,
    41, 0, 0, 0, 115, 101, 113, 117, 101, 110, 116, 105,
    97, 108, 47, 100, 101, 110, 115, 101, 95, 50, 47, 66,
    105, 97, 115, 65, 100, 100, 47, 82, 101, 97, 100, 86,
    97, 114, 105, 97, 98, 108, 101, 79, 112, 0, 0, 0,
    1, 0, 0, 0, 3, 0, 0, 0, 0, 0, 22, 0,
    32, 0, 28, 0, 27, 0, 20, 0, 16, 0, 12, 0,
    0, 0, 0, 0, 8, 0, 7, 0, 22, 0, 0, 0,
    0, 0, 0, 1, 24, 0, 0, 0, 44, 0, 0, 0,
    76, 0, 0, 0, 1, 0, 0, 0, 0, 0, 0, 9,
    96, 0, 0, 0, 2, 0, 0, 0, 255, 255, 255, 255,
    2, 0, 0, 0, 12, 0, 12, 0, 0, 0, 0, 0,
    8, 0, 4, 0, 12, 0, 0, 0, 8, 0, 0, 0,
    20, 0, 0, 0, 1, 0, 0, 0, 128, 255, 255, 255,
    255, 255, 255, 255, 0, 0, 0, 0, 1, 0, 0, 0,
    70, 221, 123, 59, 25, 0, 0, 0, 115, 101, 114, 118,
    105, 110, 103, 95, 100, 101, 102, 97, 117, 108, 116, 95,
    105, 110, 112, 117, 116, 95, 49, 58, 48, 0, 0, 0,
    2, 0, 0, 0, 1, 0, 0, 0, 2, 0, 0, 0,
    2, 0, 0, 0, 36, 0, 0, 0, 4, 0, 0, 0,
    240, 255, 255, 255, 25, 0, 0, 0, 2, 0, 0, 0,
    0, 0, 0, 25, 12, 0, 16, 0, 15, 0, 0, 0,
    8, 0, 4, 0, 12, 0, 0, 0, 9, 0, 0, 0,
    4, 0, 0, 0, 0, 0, 0, 9
};

const unsigned int model_tflite_len = 2888;

#endif // TFLITE_MODEL_H_
